unsigned char g_model[] = {
  0x1c, 0x00, 0x00, 0x00, 0x54, 0x46, 0x4c, 0x33, 0x14, 0x00, 0x20, 0x00,
  0x1c, 0x00, 0x18, 0x00, 0x14, 0x00, 0x10, 0x00, 0x0c, 0x00, 0x00, 0x00,
  0x08, 0x00, 0x04, 0x00, 0x14, 0x00, 0x00, 0x00, 0x1c, 0x00, 0x00, 0x00,
  0xa4, 0x00, 0x00, 0x00, 0xfc, 0x00, 0x00, 0x00, 0xb8, 0x03, 0x00, 0x00,
  0xc8, 0x03, 0x00, 0x00, 0x98, 0x0a, 0x00, 0x00, 0x03, 0x00, 0x00, 0x00,
  0x01, 0x00, 0x00, 0x00, 0x10, 0x00, 0x00, 0x00, 0x00, 0x00, 0x0a, 0x00,
  0x10, 0x00, 0x0c, 0x00, 0x08, 0x00, 0x04, 0x00, 0x0a, 0x00, 0x00, 0x00,
  0x0c, 0x00, 0x00, 0x00, 0x1c, 0x00, 0x00, 0x00, 0x40, 0x00, 0x00, 0x00,
  0x0f, 0x00, 0x00, 0x00, 0x73, 0x65, 0x72, 0x76, 0x69, 0x6e, 0x67, 0x5f,
  0x64, 0x65, 0x66, 0x61, 0x75, 0x6c, 0x74, 0x00, 0x01, 0x00, 0x00, 0x00,
  0x04, 0x00, 0x00, 0x00, 0x84, 0xff, 0xff, 0xff, 0x09, 0x00, 0x00, 0x00,
  0x04, 0x00, 0x00, 0x00, 0x0c, 0x00, 0x00, 0x00, 0x6f, 0x75, 0x74, 0x70,
  0x75, 0x74, 0x2d, 0x6c, 0x61, 0x79, 0x65, 0x72, 0x00, 0x00, 0x00, 0x00,
  0x01, 0x00, 0x00, 0x00, 0x04, 0x00, 0x00, 0x00, 0xde, 0xfc, 0xff, 0xff,
  0x04, 0x00, 0x00, 0x00, 0x14, 0x00, 0x00, 0x00, 0x68, 0x69, 0x64, 0x64,
  0x65, 0x6e, 0x2d, 0x6c, 0x61, 0x79, 0x65, 0x72, 0x2d, 0x30, 0x5f, 0x69,
  0x6e, 0x70, 0x75, 0x74, 0x00, 0x00, 0x00, 0x00, 0x02, 0x00, 0x00, 0x00,
  0x34, 0x00, 0x00, 0x00, 0x04, 0x00, 0x00, 0x00, 0xdc, 0xff, 0xff, 0xff,
  0x0c, 0x00, 0x00, 0x00, 0x04, 0x00, 0x00, 0x00, 0x13, 0x00, 0x00, 0x00,
  0x43, 0x4f, 0x4e, 0x56, 0x45, 0x52, 0x53, 0x49, 0x4f, 0x4e, 0x5f, 0x4d,
  0x45, 0x54, 0x41, 0x44, 0x41, 0x54, 0x41, 0x00, 0x08, 0x00, 0x0c, 0x00,
  0x08, 0x00, 0x04, 0x00, 0x08, 0x00, 0x00, 0x00, 0x0b, 0x00, 0x00, 0x00,
  0x04, 0x00, 0x00, 0x00, 0x13, 0x00, 0x00, 0x00, 0x6d, 0x69, 0x6e, 0x5f,
  0x72, 0x75, 0x6e, 0x74, 0x69, 0x6d, 0x65, 0x5f, 0x76, 0x65, 0x72, 0x73,
  0x69, 0x6f, 0x6e, 0x00, 0x0d, 0x00, 0x00, 0x00, 0xb8, 0x02, 0x00, 0x00,
  0xb0, 0x02, 0x00, 0x00, 0x9c, 0x02, 0x00, 0x00, 0x74, 0x02, 0x00, 0x00,
  0x24, 0x02, 0x00, 0x00, 0x14, 0x01, 0x00, 0x00, 0xc4, 0x00, 0x00, 0x00,
  0xa4, 0x00, 0x00, 0x00, 0x9c, 0x00, 0x00, 0x00, 0x94, 0x00, 0x00, 0x00,
  0x8c, 0x00, 0x00, 0x00, 0x6c, 0x00, 0x00, 0x00, 0x04, 0x00, 0x00, 0x00,
  0x96, 0xfd, 0xff, 0xff, 0x04, 0x00, 0x00, 0x00, 0x58, 0x00, 0x00, 0x00,
  0x0c, 0x00, 0x00, 0x00, 0x08, 0x00, 0x0e, 0x00, 0x08, 0x00, 0x04, 0x00,
  0x08, 0x00, 0x00, 0x00, 0x10, 0x00, 0x00, 0x00, 0x28, 0x00, 0x00, 0x00,
  0x00, 0x00, 0x06, 0x00, 0x08, 0x00, 0x04, 0x00, 0x06, 0x00, 0x00, 0x00,
  0x04, 0x00, 0x00, 0x00, 0x01, 0x00, 0x00, 0x00, 0xeb, 0x03, 0x00, 0x00,
  0x00, 0x00, 0x0a, 0x00, 0x10, 0x00, 0x0c, 0x00, 0x08, 0x00, 0x04, 0x00,
  0x0a, 0x00, 0x00, 0x00, 0x01, 0x00, 0x00, 0x00, 0x02, 0x00, 0x00, 0x00,
  0x04, 0x00, 0x00, 0x00, 0x06, 0x00, 0x00, 0x00, 0x32, 0x2e, 0x31, 0x31,
  0x2e, 0x30, 0x00, 0x00, 0xfa, 0xfd, 0xff, 0xff, 0x04, 0x00, 0x00, 0x00,
  0x10, 0x00, 0x00, 0x00, 0x31, 0x2e, 0x31, 0x34, 0x2e, 0x30, 0x00, 0x00,
  0x00, 0x00, 0x00, 0x00, 0x00, 0x00, 0x00, 0x00, 0x84, 0xfd, 0xff, 0xff,
  0x88, 0xfd, 0xff, 0xff, 0x8c, 0xfd, 0xff, 0xff, 0x22, 0xfe, 0xff, 0xff,
  0x04, 0x00, 0x00, 0x00, 0x10, 0x00, 0x00, 0x00, 0x87, 0xfe, 0x4d, 0x5a,
  0x05, 0x7e, 0x89, 0x51, 0xd9, 0xcc, 0x2e, 0x81, 0x3f, 0x56, 0xe3, 0x45,
  0x3e, 0xfe, 0xff, 0xff, 0x04, 0x00, 0x00, 0x00, 0x40, 0x00, 0x00, 0x00,
  0x00, 0x00, 0x00, 0x00, 0x5f, 0xff, 0xff, 0xff, 0xf4, 0xdd, 0xff, 0xff,
  0x5e, 0xe0, 0xff, 0xff, 0xa7, 0x11, 0x00, 0x00, 0x0e, 0xfe, 0xff, 0xff,
  0x00, 0x00, 0x00, 0x00, 0x65, 0x14, 0x00, 0x00, 0x00, 0x00, 0x00, 0x00,
  0x00, 0x00, 0x00, 0x00, 0x26, 0xf0, 0xff, 0xff, 0x00, 0x00, 0x00, 0x00,
  0x7e, 0xf6, 0xff, 0xff, 0x87, 0x05, 0x00, 0x00, 0x00, 0x00, 0x00, 0x00,
  0x9e, 0x12, 0x00, 0x00, 0x8a, 0xfe, 0xff, 0xff, 0x04, 0x00, 0x00, 0x00,
  0x00, 0x01, 0x00, 0x00, 0xf8, 0x09, 0x21, 0xe7, 0x06, 0x06, 0x03, 0xfe,
  0xfe, 0xe6, 0x1c, 0xec, 0xef, 0xfe, 0xe0, 0xf4, 0xe2, 0x10, 0x24, 0x1f,
  0xfa, 0x16, 0xec, 0x1a, 0xf5, 0x18, 0x36, 0xf0, 0x1d, 0xe3, 0x06, 0xd6,
  0x0e, 0xf2, 0x00, 0x10, 0x1d, 0x0a, 0xfc, 0x21, 0x05, 0x06, 0x08, 0x06,
  0xe9, 0xe5, 0x24, 0x02, 0x27, 0xd8, 0xca, 0x05, 0x03, 0x18, 0xf4, 0x27,
  0xd7, 0xec, 0xcd, 0xeb, 0x1e, 0xf2, 0xd7, 0xe5, 0xe9, 0xea, 0xb9, 0xed,
  0x1a, 0x9e, 0xfd, 0x06, 0x0e, 0x1b, 0xea, 0xed, 0x9a, 0x17, 0x09, 0x02,
  0x18, 0x05, 0xf7, 0xce, 0x41, 0xdb, 0xeb, 0xf6, 0x08, 0xd6, 0xf4, 0x25,
  0xdb, 0xd9, 0xfe, 0xe3, 0xef, 0x1f, 0xf0, 0x04, 0x28, 0x0d, 0x06, 0x15,
  0xeb, 0xfa, 0xcb, 0x19, 0x1c, 0x0f, 0x17, 0x34, 0xee, 0xda, 0xc1, 0xe8,
  0x33, 0xc7, 0x01, 0x27, 0x1f, 0x15, 0x81, 0x10, 0xbd, 0x21, 0xe0, 0x36,
  0x18, 0xed, 0x20, 0x16, 0x04, 0x17, 0xdc, 0xe6, 0xd7, 0xec, 0xfa, 0xfa,
  0xfa, 0xee, 0x09, 0xe5, 0xde, 0x0a, 0x4d, 0x33, 0xd6, 0xe7, 0x1f, 0x09,
  0x23, 0xd9, 0xfc, 0xf5, 0xf1, 0x11, 0x22, 0xf3, 0xfa, 0x11, 0xdc, 0xeb,
  0x07, 0xef, 0x26, 0xff, 0xd6, 0x0d, 0xf0, 0x0b, 0xe5, 0xe1, 0x06, 0x17,
  0x04, 0x15, 0xd3, 0xd1, 0xf7, 0x02, 0xf1, 0x18, 0x11, 0x0f, 0x0c, 0xd6,
  0x1f, 0x1a, 0x14, 0x13, 0x18, 0x15, 0xe7, 0xdd, 0xdd, 0x15, 0x01, 0x24,
  0x0d, 0xdd, 0xda, 0x0f, 0xdc, 0x19, 0xe1, 0xdb, 0xd7, 0xec, 0x1a, 0xf6,
  0xfe, 0x1a, 0x01, 0xd9, 0x28, 0xdd, 0xe9, 0xfc, 0xef, 0xf8, 0xed, 0x12,
  0xe8, 0xf6, 0xf8, 0xed, 0x0b, 0x1f, 0xf1, 0xd7, 0x16, 0xec, 0x09, 0xd6,
  0xe3, 0xeb, 0xfc, 0xf5, 0xdb, 0xe4, 0x36, 0x2d, 0xf7, 0xe7, 0x18, 0x12,
  0x29, 0xf2, 0x06, 0xef, 0x29, 0x07, 0x29, 0x0c, 0x96, 0xff, 0xff, 0xff,
  0x04, 0x00, 0x00, 0x00, 0x40, 0x00, 0x00, 0x00, 0x00, 0x00, 0x00, 0x00,
  0x24, 0xf4, 0xff, 0xff, 0x36, 0x05, 0x00, 0x00, 0xd9, 0x07, 0x00, 0x00,
  0xc0, 0x11, 0x00, 0x00, 0xb9, 0x0a, 0x00, 0x00, 0x6c, 0x08, 0x00, 0x00,
  0x95, 0x0e, 0x00, 0x00, 0xc1, 0xff, 0xff, 0xff, 0x82, 0xf4, 0xff, 0xff,
  0xdf, 0xfc, 0xff, 0xff, 0xa4, 0x05, 0x00, 0x00, 0xa6, 0xfe, 0xff, 0xff,
  0xc1, 0xff, 0xff, 0xff, 0xda, 0xff, 0xff, 0xff, 0xf2, 0xf7, 0xff, 0xff,
  0xe2, 0xff, 0xff, 0xff, 0x04, 0x00, 0x00, 0x00, 0x10, 0x00, 0x00, 0x00,
  0xdd, 0x25, 0xed, 0xd1, 0xbb, 0xac, 0xec, 0x7f, 0x28, 0x59, 0x17, 0xf3,
  0x36, 0x01, 0x29, 0x2b, 0x00, 0x00, 0x06, 0x00, 0x08, 0x00, 0x04, 0x00,
  0x06, 0x00, 0x00, 0x00, 0x04, 0x00, 0x00, 0x00, 0x04, 0x00, 0x00, 0x00,
  0xeb, 0xf8, 0xff, 0xff, 0x84, 0xff, 0xff, 0xff, 0x88, 0xff, 0xff, 0xff,
  0x0f, 0x00, 0x00, 0x00, 0x4d, 0x4c, 0x49, 0x52, 0x20, 0x43, 0x6f, 0x6e,
  0x76, 0x65, 0x72, 0x74, 0x65, 0x64, 0x2e, 0x00, 0x01, 0x00, 0x00, 0x00,
  0x14, 0x00, 0x00, 0x00, 0x00, 0x00, 0x0e, 0x00, 0x18, 0x00, 0x14, 0x00,
  0x10, 0x00, 0x0c, 0x00, 0x08, 0x00, 0x04, 0x00, 0x0e, 0x00, 0x00, 0x00,
  0x14, 0x00, 0x00, 0x00, 0x1c, 0x00, 0x00, 0x00, 0xdc, 0x00, 0x00, 0x00,
  0xe0, 0x00, 0x00, 0x00, 0xe4, 0x00, 0x00, 0x00, 0x04, 0x00, 0x00, 0x00,
  0x6d, 0x61, 0x69, 0x6e, 0x00, 0x00, 0x00, 0x00, 0x03, 0x00, 0x00, 0x00,
  0x84, 0x00, 0x00, 0x00, 0x3c, 0x00, 0x00, 0x00, 0x04, 0x00, 0x00, 0x00,
  0x96, 0xff, 0xff, 0xff, 0x14, 0x00, 0x00, 0x00, 0x00, 0x00, 0x00, 0x08,
  0x10, 0x00, 0x00, 0x00, 0x14, 0x00, 0x00, 0x00, 0x04, 0x00, 0x04, 0x00,
  0x04, 0x00, 0x00, 0x00, 0x01, 0x00, 0x00, 0x00, 0x09, 0x00, 0x00, 0x00,
  0x03, 0x00, 0x00, 0x00, 0x08, 0x00, 0x00, 0x00, 0x02, 0x00, 0x00, 0x00,
  0x01, 0x00, 0x00, 0x00, 0xca, 0xff, 0xff, 0xff, 0x10, 0x00, 0x00, 0x00,
  0x00, 0x00, 0x00, 0x08, 0x10, 0x00, 0x00, 0x00, 0x14, 0x00, 0x00, 0x00,
  0xba, 0xff, 0xff, 0xff, 0x00, 0x00, 0x00, 0x01, 0x01, 0x00, 0x00, 0x00,
  0x08, 0x00, 0x00, 0x00, 0x03, 0x00, 0x00, 0x00, 0x07, 0x00, 0x00, 0x00,
  0x04, 0x00, 0x00, 0x00, 0x03, 0x00, 0x00, 0x00, 0x00, 0x00, 0x0e, 0x00,
  0x16, 0x00, 0x00, 0x00, 0x10, 0x00, 0x0c, 0x00, 0x0b, 0x00, 0x04, 0x00,
  0x0e, 0x00, 0x00, 0x00, 0x18, 0x00, 0x00, 0x00, 0x00, 0x00, 0x00, 0x08,
  0x18, 0x00, 0x00, 0x00, 0x1c, 0x00, 0x00, 0x00, 0x00, 0x00, 0x06, 0x00,
  0x08, 0x00, 0x07, 0x00, 0x06, 0x00, 0x00, 0x00, 0x00, 0x00, 0x00, 0x01,
  0x01, 0x00, 0x00, 0x00, 0x07, 0x00, 0x00, 0x00, 0x03, 0x00, 0x00, 0x00,
  0x00, 0x00, 0x00, 0x00, 0x06, 0x00, 0x00, 0x00, 0x05, 0x00, 0x00, 0x00,
  0x01, 0x00, 0x00, 0x00, 0x09, 0x00, 0x00, 0x00, 0x01, 0x00, 0x00, 0x00,
  0x00, 0x00, 0x00, 0x00, 0x0a, 0x00, 0x00, 0x00, 0x2c, 0x05, 0x00, 0x00,
  0x94, 0x04, 0x00, 0x00, 0x08, 0x04, 0x00, 0x00, 0x84, 0x03, 0x00, 0x00,
  0x10, 0x03, 0x00, 0x00, 0x8c, 0x02, 0x00, 0x00, 0x18, 0x02, 0x00, 0x00,
  0x4c, 0x01, 0x00, 0x00, 0x80, 0x00, 0x00, 0x00, 0x04, 0x00, 0x00, 0x00,
  0x12, 0xfb, 0xff, 0xff, 0x00, 0x00, 0x00, 0x01, 0x18, 0x00, 0x00, 0x00,
  0x20, 0x00, 0x00, 0x00, 0x3c, 0x00, 0x00, 0x00, 0x0a, 0x00, 0x00, 0x00,
  0x00, 0x00, 0x00, 0x09, 0x50, 0x00, 0x00, 0x00, 0x02, 0x00, 0x00, 0x00,
  0xff, 0xff, 0xff, 0xff, 0x01, 0x00, 0x00, 0x00, 0xfc, 0xfa, 0xff, 0xff,
  0x08, 0x00, 0x00, 0x00, 0x10, 0x00, 0x00, 0x00, 0x01, 0x00, 0x00, 0x00,
  0x00, 0x00, 0x00, 0x00, 0x00, 0x00, 0x00, 0x00, 0x01, 0x00, 0x00, 0x00,
  0x6e, 0xf3, 0x07, 0x3c, 0x19, 0x00, 0x00, 0x00, 0x53, 0x74, 0x61, 0x74,
  0x65, 0x66, 0x75, 0x6c, 0x50, 0x61, 0x72, 0x74, 0x69, 0x74, 0x69, 0x6f,
  0x6e, 0x65, 0x64, 0x43, 0x61, 0x6c, 0x6c, 0x3a, 0x30, 0x00, 0x00, 0x00,
  0x02, 0x00, 0x00, 0x00, 0x01, 0x00, 0x00, 0x00, 0x01, 0x00, 0x00, 0x00,
  0x8a, 0xfb, 0xff, 0xff, 0x00, 0x00, 0x00, 0x01, 0x18, 0x00, 0x00, 0x00,
  0x20, 0x00, 0x00, 0x00, 0x40, 0x00, 0x00, 0x00, 0x09, 0x00, 0x00, 0x00,
  0x00, 0x00, 0x00, 0x09, 0xa0, 0x00, 0x00, 0x00, 0x02, 0x00, 0x00, 0x00,
  0xff, 0xff, 0xff, 0xff, 0x10, 0x00, 0x00, 0x00, 0x74, 0xfb, 0xff, 0xff,
  0x08, 0x00, 0x00, 0x00, 0x14, 0x00, 0x00, 0x00, 0x01, 0x00, 0x00, 0x00,
  0x80, 0xff, 0xff, 0xff, 0xff, 0xff, 0xff, 0xff, 0x00, 0x00, 0x00, 0x00,
  0x01, 0x00, 0x00, 0x00, 0xb5, 0xd6, 0x44, 0x3c, 0x67, 0x00, 0x00, 0x00,
  0x6c, 0x61, 0x72, 0x67, 0x65, 0x72, 0x2d, 0x6d, 0x6f, 0x64, 0x65, 0x6c,
  0x2f, 0x68, 0x69, 0x64, 0x64, 0x65, 0x6e, 0x2d, 0x6c, 0x61, 0x79, 0x65,
  0x72, 0x2d, 0x31, 0x2f, 0x4d, 0x61, 0x74, 0x4d, 0x75, 0x6c, 0x3b, 0x6c,
  0x61, 0x72, 0x67, 0x65, 0x72, 0x2d, 0x6d, 0x6f, 0x64, 0x65, 0x6c, 0x2f,
  0x68, 0x69, 0x64, 0x64, 0x65, 0x6e, 0x2d, 0x6c, 0x61, 0x79, 0x65, 0x72,
  0x2d, 0x31, 0x2f, 0x52, 0x65, 0x6c, 0x75, 0x3b, 0x6c, 0x61, 0x72, 0x67,
  0x65, 0x72, 0x2d, 0x6d, 0x6f, 0x64, 0x65, 0x6c, 0x2f, 0x68, 0x69, 0x64,
  0x64, 0x65, 0x6e, 0x2d, 0x6c, 0x61, 0x79, 0x65, 0x72, 0x2d, 0x31, 0x2f,
  0x42, 0x69, 0x61, 0x73, 0x41, 0x64, 0x64, 0x00, 0x02, 0x00, 0x00, 0x00,
  0x01, 0x00, 0x00, 0x00, 0x10, 0x00, 0x00, 0x00, 0x52, 0xfc, 0xff, 0xff,
  0x00, 0x00, 0x00, 0x01, 0x18, 0x00, 0x00, 0x00, 0x20, 0x00, 0x00, 0x00,
  0x40, 0x00, 0x00, 0x00, 0x08, 0x00, 0x00, 0x00, 0x00, 0x00, 0x00, 0x09,
  0xa0, 0x00, 0x00, 0x00, 0x02, 0x00, 0x00, 0x00, 0xff, 0xff, 0xff, 0xff,
  0x10, 0x00, 0x00, 0x00, 0x3c, 0xfc, 0xff, 0xff, 0x08, 0x00, 0x00, 0x00,
  0x14, 0x00, 0x00, 0x00, 0x01, 0x00, 0x00, 0x00, 0x80, 0xff, 0xff, 0xff,
  0xff, 0xff, 0xff, 0xff, 0x00, 0x00, 0x00, 0x00, 0x01, 0x00, 0x00, 0x00,
  0x23, 0xb5, 0x57, 0x3c, 0x67, 0x00, 0x00, 0x00, 0x6c, 0x61, 0x72, 0x67,
  0x65, 0x72, 0x2d, 0x6d, 0x6f, 0x64, 0x65, 0x6c, 0x2f, 0x68, 0x69, 0x64,
  0x64, 0x65, 0x6e, 0x2d, 0x6c, 0x61, 0x79, 0x65, 0x72, 0x2d, 0x30, 0x2f,
  0x4d, 0x61, 0x74, 0x4d, 0x75, 0x6c, 0x3b, 0x6c, 0x61, 0x72, 0x67, 0x65,
  0x72, 0x2d, 0x6d, 0x6f, 0x64, 0x65, 0x6c, 0x2f, 0x68, 0x69, 0x64, 0x64,
  0x65, 0x6e, 0x2d, 0x6c, 0x61, 0x79, 0x65, 0x72, 0x2d, 0x30, 0x2f, 0x52,
  0x65, 0x6c, 0x75, 0x3b, 0x6c, 0x61, 0x72, 0x67, 0x65, 0x72, 0x2d, 0x6d,
  0x6f, 0x64, 0x65, 0x6c, 0x2f, 0x68, 0x69, 0x64, 0x64, 0x65, 0x6e, 0x2d,
  0x6c, 0x61, 0x79, 0x65, 0x72, 0x2d, 0x30, 0x2f, 0x42, 0x69, 0x61, 0x73,
  0x41, 0x64, 0x64, 0x00, 0x02, 0x00, 0x00, 0x00, 0x01, 0x00, 0x00, 0x00,
  0x10, 0x00, 0x00, 0x00, 0xae, 0xfd, 0xff, 0xff, 0x00, 0x00, 0x00, 0x01,
  0x14, 0x00, 0x00, 0x00, 0x30, 0x00, 0x00, 0x00, 0x07, 0x00, 0x00, 0x00,
  0x00, 0x00, 0x00, 0x09, 0x4c, 0x00, 0x00, 0x00, 0xf4, 0xfc, 0xff, 0xff,
  0x08, 0x00, 0x00, 0x00, 0x10, 0x00, 0x00, 0x00, 0x01, 0x00, 0x00, 0x00,
  0x00, 0x00, 0x00, 0x00, 0x00, 0x00, 0x00, 0x00, 0x01, 0x00, 0x00, 0x00,
  0x23, 0xd2, 0x8d, 0x3b, 0x22, 0x00, 0x00, 0x00, 0x6c, 0x61, 0x72, 0x67,
  0x65, 0x72, 0x2d, 0x6d, 0x6f, 0x64, 0x65, 0x6c, 0x2f, 0x68, 0x69, 0x64,
  0x64, 0x65, 0x6e, 0x2d, 0x6c, 0x61, 0x79, 0x65, 0x72, 0x2d, 0x30, 0x2f,
  0x4d, 0x61, 0x74, 0x4d, 0x75, 0x6c, 0x00, 0x00, 0x02, 0x00, 0x00, 0x00,
  0x10, 0x00, 0x00, 0x00, 0x01, 0x00, 0x00, 0x00, 0x1e, 0xfe, 0xff, 0xff,
  0x00, 0x00, 0x00, 0x01, 0x14, 0x00, 0x00, 0x00, 0x34, 0x00, 0x00, 0x00,
  0x06, 0x00, 0x00, 0x00, 0x00, 0x00, 0x00, 0x02, 0x60, 0x00, 0x00, 0x00,
  0x64, 0xfd, 0xff, 0xff, 0x08, 0x00, 0x00, 0x00, 0x14, 0x00, 0x00, 0x00,
  0x01, 0x00, 0x00, 0x00, 0x00, 0x00, 0x00, 0x00, 0x00, 0x00, 0x00, 0x00,
  0x00, 0x00, 0x00, 0x00, 0x01, 0x00, 0x00, 0x00, 0xea, 0x0b, 0xdf, 0x38,
  0x32, 0x00, 0x00, 0x00, 0x6c, 0x61, 0x72, 0x67, 0x65, 0x72, 0x2d, 0x6d,
  0x6f, 0x64, 0x65, 0x6c, 0x2f, 0x68, 0x69, 0x64, 0x64, 0x65, 0x6e, 0x2d,
  0x6c, 0x61, 0x79, 0x65, 0x72, 0x2d, 0x30, 0x2f, 0x42, 0x69, 0x61, 0x73,
  0x41, 0x64, 0x64, 0x2f, 0x52, 0x65, 0x61, 0x64, 0x56, 0x61, 0x72, 0x69,
  0x61, 0x62, 0x6c, 0x65, 0x4f, 0x70, 0x00, 0x00, 0x01, 0x00, 0x00, 0x00,
  0x10, 0x00, 0x00, 0x00, 0x9e, 0xfe, 0xff, 0xff, 0x00, 0x00, 0x00, 0x01,
  0x14, 0x00, 0x00, 0x00, 0x30, 0x00, 0x00, 0x00, 0x05, 0x00, 0x00, 0x00,
  0x00, 0x00, 0x00, 0x09, 0x4c, 0x00, 0x00, 0x00, 0xe4, 0xfd, 0xff, 0xff,
  0x08, 0x00, 0x00, 0x00, 0x10, 0x00, 0x00, 0x00, 0x01, 0x00, 0x00, 0x00,
  0x00, 0x00, 0x00, 0x00, 0x00, 0x00, 0x00, 0x00, 0x01, 0x00, 0x00, 0x00,
  0x82, 0x89, 0x26, 0x3c, 0x22, 0x00, 0x00, 0x00, 0x6c, 0x61, 0x72, 0x67,
  0x65, 0x72, 0x2d, 0x6d, 0x6f, 0x64, 0x65, 0x6c, 0x2f, 0x68, 0x69, 0x64,
  0x64, 0x65, 0x6e, 0x2d, 0x6c, 0x61, 0x79, 0x65, 0x72, 0x2d, 0x31, 0x2f,
  0x4d, 0x61, 0x74, 0x4d, 0x75, 0x6c, 0x00, 0x00, 0x02, 0x00, 0x00, 0x00,
  0x10, 0x00, 0x00, 0x00, 0x10, 0x00, 0x00, 0x00, 0x0e, 0xff, 0xff, 0xff,
  0x00, 0x00, 0x00, 0x01, 0x14, 0x00, 0x00, 0x00, 0x34, 0x00, 0x00, 0x00,
  0x04, 0x00, 0x00, 0x00, 0x00, 0x00, 0x00, 0x02, 0x60, 0x00, 0x00, 0x00,
  0x54, 0xfe, 0xff, 0xff, 0x08, 0x00, 0x00, 0x00, 0x14, 0x00, 0x00, 0x00,
  0x01, 0x00, 0x00, 0x00, 0x00, 0x00, 0x00, 0x00, 0x00, 0x00, 0x00, 0x00,
  0x00, 0x00, 0x00, 0x00, 0x01, 0x00, 0x00, 0x00, 0x52, 0x53, 0x0c, 0x39,
  0x32, 0x00, 0x00, 0x00, 0x6c, 0x61, 0x72, 0x67, 0x65, 0x72, 0x2d, 0x6d,
  0x6f, 0x64, 0x65, 0x6c, 0x2f, 0x68, 0x69, 0x64, 0x64, 0x65, 0x6e, 0x2d,
  0x6c, 0x61, 0x79, 0x65, 0x72, 0x2d, 0x31, 0x2f, 0x42, 0x69, 0x61, 0x73,
  0x41, 0x64, 0x64, 0x2f, 0x52, 0x65, 0x61, 0x64, 0x56, 0x61, 0x72, 0x69,
  0x61, 0x62, 0x6c, 0x65, 0x4f, 0x70, 0x00, 0x00, 0x01, 0x00, 0x00, 0x00,
  0x10, 0x00, 0x00, 0x00, 0x8e, 0xff, 0xff, 0xff, 0x00, 0x00, 0x00, 0x01,
  0x14, 0x00, 0x00, 0x00, 0x30, 0x00, 0x00, 0x00, 0x03, 0x00, 0x00, 0x00,
  0x00, 0x00, 0x00, 0x09, 0x4c, 0x00, 0x00, 0x00, 0xd4, 0xfe, 0xff, 0xff,
  0x08, 0x00, 0x00, 0x00, 0x10, 0x00, 0x00, 0x00, 0x01, 0x00, 0x00, 0x00,
  0x00, 0x00, 0x00, 0x00, 0x00, 0x00, 0x00, 0x00, 0x01, 0x00, 0x00, 0x00,
  0x60, 0xbb, 0x54, 0x3c, 0x20, 0x00, 0x00, 0x00, 0x6c, 0x61, 0x72, 0x67,
  0x65, 0x72, 0x2d, 0x6d, 0x6f, 0x64, 0x65, 0x6c, 0x2f, 0x6f, 0x75, 0x74,
  0x70, 0x75, 0x74, 0x2d, 0x6c, 0x61, 0x79, 0x65, 0x72, 0x2f, 0x4d, 0x61,
  0x74, 0x4d, 0x75, 0x6c, 0x00, 0x00, 0x00, 0x00, 0x02, 0x00, 0x00, 0x00,
  0x01, 0x00, 0x00, 0x00, 0x10, 0x00, 0x00, 0x00, 0x00, 0x00, 0x16, 0x00,
  0x1c, 0x00, 0x18, 0x00, 0x17, 0x00, 0x10, 0x00, 0x0c, 0x00, 0x08, 0x00,
  0x00, 0x00, 0x00, 0x00, 0x00, 0x00, 0x07, 0x00, 0x16, 0x00, 0x00, 0x00,
  0x00, 0x00, 0x00, 0x01, 0x14, 0x00, 0x00, 0x00, 0x30, 0x00, 0x00, 0x00,
  0x02, 0x00, 0x00, 0x00, 0x00, 0x00, 0x00, 0x02, 0x5c, 0x00, 0x00, 0x00,
  0x5c, 0xff, 0xff, 0xff, 0x08, 0x00, 0x00, 0x00, 0x10, 0x00, 0x00, 0x00,
  0x01, 0x00, 0x00, 0x00, 0x00, 0x00, 0x00, 0x00, 0x00, 0x00, 0x00, 0x00,
  0x01, 0x00, 0x00, 0x00, 0xe1, 0x91, 0x23, 0x39, 0x30, 0x00, 0x00, 0x00,
  0x6c, 0x61, 0x72, 0x67, 0x65, 0x72, 0x2d, 0x6d, 0x6f, 0x64, 0x65, 0x6c,
  0x2f, 0x6f, 0x75, 0x74, 0x70, 0x75, 0x74, 0x2d, 0x6c, 0x61, 0x79, 0x65,
  0x72, 0x2f, 0x42, 0x69, 0x61, 0x73, 0x41, 0x64, 0x64, 0x2f, 0x52, 0x65,
  0x61, 0x64, 0x56, 0x61, 0x72, 0x69, 0x61, 0x62, 0x6c, 0x65, 0x4f, 0x70,
  0x00, 0x00, 0x00, 0x00, 0x01, 0x00, 0x00, 0x00, 0x01, 0x00, 0x00, 0x00,
  0x00, 0x00, 0x16, 0x00, 0x20, 0x00, 0x1c, 0x00, 0x1b, 0x00, 0x14, 0x00,
  0x10, 0x00, 0x0c, 0x00, 0x00, 0x00, 0x00, 0x00, 0x08, 0x00, 0x07, 0x00,
  0x16, 0x00, 0x00, 0x00, 0x00, 0x00, 0x00, 0x01, 0x18, 0x00, 0x00, 0x00,
  0x2c, 0x00, 0x00, 0x00, 0x4c, 0x00, 0x00, 0x00, 0x01, 0x00, 0x00, 0x00,
  0x00, 0x00, 0x00, 0x09, 0x6c, 0x00, 0x00, 0x00, 0x02, 0x00, 0x00, 0x00,
  0xff, 0xff, 0xff, 0xff, 0x01, 0x00, 0x00, 0x00, 0x0c, 0x00, 0x0c, 0x00,
  0x00, 0x00, 0x00, 0x00, 0x08, 0x00, 0x04, 0x00, 0x0c, 0x00, 0x00, 0x00,
  0x08, 0x00, 0x00, 0x00, 0x14, 0x00, 0x00, 0x00, 0x01, 0x00, 0x00, 0x00,
  0x80, 0xff, 0xff, 0xff, 0xff, 0xff, 0xff, 0xff, 0x00, 0x00, 0x00, 0x00,
  0x01, 0x00, 0x00, 0x00, 0x5d, 0x4f, 0xc9, 0x3c, 0x26, 0x00, 0x00, 0x00,
  0x73, 0x65, 0x72, 0x76, 0x69, 0x6e, 0x67, 0x5f, 0x64, 0x65, 0x66, 0x61,
  0x75, 0x6c, 0x74, 0x5f, 0x68, 0x69, 0x64, 0x64, 0x65, 0x6e, 0x2d, 0x6c,
  0x61, 0x79, 0x65, 0x72, 0x2d, 0x30, 0x5f, 0x69, 0x6e, 0x70, 0x75, 0x74,
  0x3a, 0x30, 0x00, 0x00, 0x02, 0x00, 0x00, 0x00, 0x01, 0x00, 0x00, 0x00,
  0x01, 0x00, 0x00, 0x00, 0x01, 0x00, 0x00, 0x00, 0x10, 0x00, 0x00, 0x00,
  0x0c, 0x00, 0x10, 0x00, 0x0f, 0x00, 0x00, 0x00, 0x08, 0x00, 0x04, 0x00,
  0x0c, 0x00, 0x00, 0x00, 0x09, 0x00, 0x00, 0x00, 0x04, 0x00, 0x00, 0x00,
  0x00, 0x00, 0x00, 0x09
};
unsigned int g_model_len = 2800;
